<?xml version="1.0"?>
<opencv_storage>
<cascade>
  <stageType>BOOST</stageType>
  <featureType>LBP</featureType>
  <height>30</height>
  <width>30</width>
  <stageParams>
    <boostType>GAB</boostType>
    <minHitRate>9.9900001287460327e-01</minHitRate>
    <maxFalseAlarm>4.4999998807907104e-01</maxFalseAlarm>
    <weightTrimRate>9.4999999999999996e-01</weightTrimRate>
    <maxDepth>1</maxDepth>
    <maxWeakCount>100</maxWeakCount></stageParams>
  <featureParams>
    <maxCatCount>256</maxCatCount>
    <featSize>1</featSize></featureParams>
  <stageNum>19</stageNum>
  <stages>
    <!-- stage 0 -->
    <_>
      <maxWeakCount>6</maxWeakCount>
      <stageThreshold>-1.9106194972991943e+00</stageThreshold>
      <weakClassifiers>
        <_>
          <internalNodes>
            0 -1 19 -11534369 525336015 352604501 386398047 -3145729
            -15728657 1598554111 1599602519</internalNodes>
          <leafValues>
            -8.4512871503829956e-01 6.2008243799209595e-01</leafValues></_>
        <_>
          <internalNodes>
            0 -1 4 -269488146 -806383742 -604513805 2011115487 -1052786
            -7402742 -135790625 -4145</internalNodes>
          <leafValues>
            -7.3951369524002075e-01 5.8413863182067871e-01</leafValues></_>
        <_>
          <internalNodes>
            0 -1 157 -776 -6553605 -844370736 -1078198534 -537923344
            -545268267 -9560 -6553605</internalNodes>
          <leafValues>
            -7.2043448686599731e-01 5.7304507493972778e-01</leafValues></_>
        <_>
          <internalNodes>
            0 -1 117 -646980400 -1625575376 -1646275336 -1074003984
            -868245260 -1623883760 -578814499 -1086333441</internalNodes>
          <leafValues>
            -7.7763587236404419e-01 4.8707070946693420e-01</leafValues></_>
        <_>
          <internalNodes>
            0 -1 65 -2105505104 -1073890373 -1115709441 1073028085
            -1413567489 -1076117505 -1952728065 534452987</internalNodes>
          <leafValues>
            -7.8120607137680054e-01 4.8213174939155579e-01</leafValues></_>
        <_>
          <internalNodes>
            0 -1 12 -1 -8451217 151190522 486587194 -16777478 -71694244
            -8650769 -11010053</internalNodes>
          <leafValues>
            -5.2273797988891602e-01 6.8859279155731201e-01</leafValues></_></weakClassifiers></_>
    <!-- stage 1 -->
    <_>
      <maxWeakCount>7</maxWeakCount>
      <stageThreshold>-2.1538558006286621e+00</stageThreshold>
      <weakClassifiers>
        <_>
          <internalNodes>
            0 -1 41 -391447830 -222561478 -270663681 -134480941
            -1968506118 -71304197 -926876673 -67109893</internalNodes>
          <leafValues>
            -7.4601262807846069e-01 5.3580850362777710e-01</leafValues></_>
        <_>
          <internalNodes>
            0 -1 62 1600125144 -2098178 -36835112 -50246 2136799452
            2136537564 -1092617992 -1349</internalNodes>
          <leafValues>
            -7.5807088613510132e-01 5.0055426359176636e-01</leafValues></_>
        <_>
          <internalNodes>
            0 -1 61 -1 -1080033289 -1627325445 1059061727 -282329089
            -1289224453 1325924319 859303735</internalNodes>
          <leafValues>
            -7.2601389884948730e-01 4.8661875724792480e-01</leafValues></_>
        <_>
          <internalNodes>
            0 -1 5 -521212242 -83890201 1324346207 -169906305 1917579182
            -83891713 1880354767 -134217857</internalNodes>
          <leafValues>
            -6.4898401498794556e-01 5.0510758161544800e-01</leafValues></_>
        <_>
          <internalNodes>
            0 -1 167 -75497969 2071198211 1937765371 1931473679 -8389815
            -4260 -85460229 -77858214</internalNodes>
          <leafValues>
            -5.2114111185073853e-01 6.7119234800338745e-01</leafValues></_>
        <_>
          <internalNodes>
            0 -1 159 -6 -537927809 -1595936048 -543163502 -608178177
            1314777547 -2114752416 -814221325</internalNodes>
          <leafValues>
            -6.4797699451446533e-01 4.7454231977462769e-01</leafValues></_>
        <_>
          <internalNodes>
            0 -1 7 -269485169 -1393561493 -402687151 -134219789
            -335550721 -1461190677 1107293514 -704645673</internalNodes>
          <leafValues>
            -4.8680055141448975e-01 6.5090405941009521e-01</leafValues></_></weakClassifiers></_>
    <!-- stage 2 -->
    <_>
      <maxWeakCount>8</maxWeakCount>
      <stageThreshold>-1.5709369182586670e+00</stageThreshold>
      <weakClassifiers>
        <_>
          <internalNodes>
            0 -1 32 -8353 1610550235 -545268387 1476351327 -4194305
            -267265 -1 2139051871</internalNodes>
          <leafValues>
            -6.9949591159820557e-01 5.3239160776138306e-01</leafValues></_>
        <_>
          <internalNodes>
            0 -1 168 -1 -2097153 -537065284 -1 2136956413 1601791993
            2105345108 -1027</internalNodes>
          <leafValues>
            -5.9565079212188721e-01 6.0570955276489258e-01</leafValues></_>
        <_>
          <internalNodes>
            0 -1 103 -121831247 -1073799681 -1076101121 -1077993477
            -1078215233 -57345 -4210757 1058684859</internalNodes>
          <leafValues>
            -6.2606978416442871e-01 5.0716906785964966e-01</leafValues></_>
        <_>
          <internalNodes>
            0 -1 16 61580203 -805312545 -810549765 -939539281 -342907989
            -2133 -978866261 -976255861</internalNodes>
          <leafValues>
            -6.2800002098083496e-01 5.0315922498703003e-01</leafValues></_>
        <_>
          <internalNodes>
            0 -1 149 -1423376392 -147492 -263745 -6291459 -1414463823
            -1073741827 732663807 1073679861</internalNodes>
          <leafValues>
            -6.6134345531463623e-01 4.5193934440612793e-01</leafValues></_>
        <_>
          <internalNodes>
            0 -1 146 -69469189 -1828455517 -235146574 -1088277709
            -536870945 -921186305 -537144334 -1088171013</internalNodes>
          <leafValues>
            -5.8343726396560669e-01 5.0306004285812378e-01</leafValues></_>
        <_>
          <internalNodes>
            0 -1 76 -1163331107 -117639732 -8705 -140179 -1073741825
            -531 -1342177793 -1879470852</internalNodes>
          <leafValues>
            -5.0601696968078613e-01 5.8878427743911743e-01</leafValues></_>
        <_>
          <internalNodes>
            0 -1 72 -336594337 1933308431 621415685 822155047
            -1880114502 861094512 -580936307 -212916658</internalNodes>
          <leafValues>
            -5.8546006679534912e-01 5.2770280838012695e-01</leafValues></_></weakClassifiers></_>
    <!-- stage 3 -->
    <_>
      <maxWeakCount>8</maxWeakCount>
      <stageThreshold>-1.6279283761978149e+00</stageThreshold>
      <weakClassifiers>
        <_>
          <internalNodes>
            0 -1 9 -1 1073430527 799587258 486588346 -513 528366685
            -1048577 -1</internalNodes>
          <leafValues>
            -5.9054201841354370e-01 6.2333720922470093e-01</leafValues></_>
        <_>
          <internalNodes>
            0 -1 94 -8396288 1599975952 -449348001 1599993695 -262 -330
            -486542593 -77594693</internalNodes>
          <leafValues>
            -6.5324544906616211e-01 5.0223320722579956e-01</leafValues></_>
        <_>
          <internalNodes>
            0 -1 133 1073741821 -516 -1 -10787 -1079246851 -515
            798669821 1067389264</internalNodes>
          <leafValues>
            -6.6191834211349487e-01 4.5449465513229370e-01</leafValues></_>
        <_>
          <internalNodes>
            0 -1 158 -5505025 993180408 770681048 -1154340230 2147475455
            -79692801 194889880 -72614146</internalNodes>
          <leafValues>
            -5.6783396005630493e-01 5.0101387500762939e-01</leafValues></_>
        <_>
          <internalNodes>
            0 -1 40 1246949114 -537202061 1059118074 -13568257
            1330399962 -1978657872 -271394 -1347889</internalNodes>
          <leafValues>
            -6.3173490762710571e-01 4.5261615514755249e-01</leafValues></_>
        <_>
          <internalNodes>
            0 -1 43 -273961181 -686347487 -839950339 -1321775307
            1859039115 -335807705 1324337039 -585117853</internalNodes>
          <leafValues>
            -6.0702937841415405e-01 4.4289118051528931e-01</leafValues></_>
        <_>
          <internalNodes>
            0 -1 186 -2101265 -269488145 -17827102 -67130138 -302120985
            1306516431 -150997003 -134217729</internalNodes>
          <leafValues>
            -4.5328441262245178e-01 5.8082509040832520e-01</leafValues></_>
        <_>
          <internalNodes>
            0 -1 54 -1440560389 -1619023630 -1611661825 1610601719
            -1968965633 -1074801421 -1951673093 266289372</internalNodes>
          <leafValues>
            -6.4964836835861206e-01 4.3339580297470093e-01</leafValues></_></weakClassifiers></_>
    <!-- stage 4 -->
    <_>
      <maxWeakCount>8</maxWeakCount>
      <stageThreshold>-2.3444075584411621e+00</stageThreshold>
      <weakClassifiers>
        <_>
          <internalNodes>
            0 -1 165 -209717489 -67109113 -209715329 -75497713 -75498497
            -5 -10487045 -212600061</internalNodes>
          <leafValues>
            -5.8087128400802612e-01 6.0576808452606201e-01</leafValues></_>
        <_>
          <internalNodes>
            0 -1 24 -1048593 -269488145 -207358142 -134217750 -9
            1342177279 -142608393 -134217729</internalNodes>
          <leafValues>
            -5.0346422195434570e-01 6.2282341718673706e-01</leafValues></_>
        <_>
          <internalNodes>
            0 -1 63 -556088610 -536934785 -570777637 1393741183
            -539359524 -65444 -539045986 -547692961</internalNodes>
          <leafValues>
            -5.4511821269989014e-01 5.2706980705261230e-01</leafValues></_>
        <_>
          <internalNodes>
            0 -1 150 -554017571 -46170177 -1 -536903845 -1198981890
            -6553601 -1366753282 -81069061</internalNodes>
          <leafValues>
            -4.3505460023880005e-01 6.3828289508819580e-01</leafValues></_>
        <_>
          <internalNodes>
            0 -1 78 -268963841 -33 -1345386354 -1349932246 -277894193
            1936965471 -269547378 -2013328597</internalNodes>
          <leafValues>
            -5.8943068981170654e-01 4.5221045613288879e-01</leafValues></_>
        <_>
          <internalNodes>
            0 -1 147 -1145307140 -1074013960 501210621 -8915500
            -1163134536 -1094713928 170070200 2138527189</internalNodes>
          <leafValues>
            -6.8923705816268921e-01 3.8879007101058960e-01</leafValues></_>
        <_>
          <internalNodes>
            0 -1 155 -1370552308 -14712307 -831791281 -9438385
            -1941131313 -33558801 -1538457686 -301727909</internalNodes>
          <leafValues>
            -6.4994323253631592e-01 3.9455872774124146e-01</leafValues></_>
        <_>
          <internalNodes>
            0 -1 106 -186928910 -67176469 -251662152 -229716998
            -755125431 658462719 -118643209 -67137714</internalNodes>
          <leafValues>
            -6.1595475673675537e-01 4.0146839618682861e-01</leafValues></_></weakClassifiers></_>
    <!-- stage 5 -->
    <_>
      <maxWeakCount>9</maxWeakCount>
      <stageThreshold>-1.7601219415664673e+00</stageThreshold>
      <weakClassifiers>
        <_>
          <internalNodes>
            0 -1 13 -1 -54593 839056379 453050298 -1 -65466 -1 -10485793</internalNodes>
          <leafValues>
            -5.1105332374572754e-01 6.5663290023803711e-01</leafValues></_>
        <_>
          <internalNodes>
            0 -1 180 -113 -275775537 -1048704 -537919537 -8193
            1271922655 -134219791 -134217729</internalNodes>
          <leafValues>
            -4.9358195066452026e-01 6.0095661878585815e-01</leafValues></_>
        <_>
          <internalNodes>
            0 -1 55 -489758038 -20566 -523960481 -239206913 -353726802
            -5264214 -67240001 -1254233429</internalNodes>
          <leafValues>
            -6.8477326631546021e-01 4.1227382421493530e-01</leafValues></_>
        <_>
          <internalNodes>
            0 -1 74 -536912643 -59915 -838967809 1597724147 -729602
            -49665 -73729 -4530177</internalNodes>
          <leafValues>
            -4.3000838160514832e-01 6.4746510982513428e-01</leafValues></_>
        <_>
          <internalNodes>
            0 -1 52 -1052881 -1077991647 -738238635 1999988501
            -285216769 -4212831 -421202209 -147458253</internalNodes>
          <leafValues>
            -5.1878476142883301e-01 4.9385699629783630e-01</leafValues></_>
        <_>
          <internalNodes>
            0 -1 145 -67110152 -810816533 45789360 -1142957317
            -408944641 -536871489 -67650638 -1145046221</internalNodes>
          <leafValues>
            -6.3015508651733398e-01 4.1417863965034485e-01</leafValues></_>
        <_>
          <internalNodes>
            0 -1 18 -2085901405 -202655743 -274762819 -1745619789
            -1349535753 -4198329 -2034253897 -974129819</internalNodes>
          <leafValues>
            -5.0085300207138062e-01 4.8013865947723389e-01</leafValues></_>
        <_>
          <internalNodes>
            0 -1 135 -596353539 -49155 -8847361 -426019 -591856148
            -33636369 -1215758337 -1129824338</internalNodes>
          <leafValues>
            -4.6286669373512268e-01 5.3499442338943481e-01</leafValues></_>
        <_>
          <internalNodes>
            0 -1 151 -1079320647 -1086595652 1060634109 2008244177
            865777146 -1153740975 960205821 1061117401</internalNodes>
          <leafValues>
            -6.1188960075378418e-01 3.9391580224037170e-01</leafValues></_></weakClassifiers></_>
    <!-- stage 6 -->
    <_>
      <maxWeakCount>9</maxWeakCount>
      <stageThreshold>-1.8036071062088013e+00</stageThreshold>
      <weakClassifiers>
        <_>
          <internalNodes>
            0 -1 11 -1 -1025 -85983489 1920203775 -12721 -11567793 -4097
            -8388609</internalNodes>
          <leafValues>
            -4.3633112311363220e-01 7.6113963127136230e-01</leafValues></_>
        <_>
          <internalNodes>
            0 -1 139 -572526416 -549998287 -572719624 -541065736
            -704653839 -1621117647 -572531235 -538968065</internalNodes>
          <leafValues>
            -6.2572842836380005e-01 4.6768519282341003e-01</leafValues></_>
        <_>
          <internalNodes>
            0 -1 170 -218152881 -42145 -75530241 -8683649 -1909394769
            -17039361 -764543233 -92537889</internalNodes>
          <leafValues>
            -4.5705634355545044e-01 5.8664536476135254e-01</leafValues></_>
        <_>
          <internalNodes>
            0 -1 33 -10486529 1061483871 2111831549 928461141 -68159489
            -1084492321 -167772161 2004318071</internalNodes>
          <leafValues>
            -7.0147377252578735e-01 3.7853309512138367e-01</leafValues></_>
        <_>
          <internalNodes>
            0 -1 44 -892666226 -84739430 123666431 -67382414 -859242514
            -1093944389 67436511 -263317</internalNodes>
          <leafValues>
            -5.6735742092132568e-01 4.5719021558761597e-01</leafValues></_>
        <_>
          <internalNodes>
            0 -1 99 -412123553 -143659137 1158548741 -36907443
            -545277250 -254298115 -1093891059 -36728310</internalNodes>
          <leafValues>
            -4.7371178865432739e-01 5.3208154439926147e-01</leafValues></_>
        <_>
          <internalNodes>
            0 -1 91 221255229 -536916097 2132499967 1467686239
            1026825464 -164098 -339804162 -1156443214</internalNodes>
          <leafValues>
            -4.7296789288520813e-01 5.1964133977890015e-01</leafValues></_>
        <_>
          <internalNodes>
            0 -1 36 -570487041 1585393775 -1347485746 1494286335
            -34136838 1418482804 -66054 -35659777</internalNodes>
          <leafValues>
            -4.3704926967620850e-01 5.4843753576278687e-01</leafValues></_>
        <_>
          <internalNodes>
            0 -1 174 -269484062 -359661813 -537403424 -342884469
            -302055475 912652 -237512976 1394474975</internalNodes>
          <leafValues>
            -6.6477167606353760e-01 3.5091215372085571e-01</leafValues></_></weakClassifiers></_>
    <!-- stage 7 -->
    <_>
      <maxWeakCount>9</maxWeakCount>
      <stageThreshold>-1.8165453672409058e+00</stageThreshold>
      <weakClassifiers>
        <_>
          <internalNodes>
            0 -1 2 -269488145 -1343229969 1895563263 -1025 1204809711
            -808498193 1342701567 -1</internalNodes>
          <leafValues>
            -5.7191050052642822e-01 5.0348824262619019e-01</leafValues></_>
        <_>
          <internalNodes>
            0 -1 136 -47012 -8421539 191528959 2071965567 -86136584
            -1026 -939464002 -92537861</internalNodes>
          <leafValues>
            -5.5859023332595825e-01 4.9224600195884705e-01</leafValues></_>
        <_>
          <internalNodes>
            0 -1 90 -109059 -172553 -513 -41473 -352403969 -32833
            -1114113 -1078280261</internalNodes>
          <leafValues>
            -4.0988487005233765e-01 6.2109708786010742e-01</leafValues></_>
        <_>
          <internalNodes>
            0 -1 129 -5505221 -274038945 -407917057 -290528517 -32845
            -41601 -1141164749 2138534931</internalNodes>
          <leafValues>
            -5.7287681102752686e-01 4.3975844979286194e-01</leafValues></_>
        <_>
          <internalNodes>
            0 -1 164 -513 -1275331850 501042429 -4201734 -22305861
            -1953845270 257805512 -539231590</internalNodes>
          <leafValues>
            -3.9430993795394897e-01 5.8242255449295044e-01</leafValues></_>
        <_>
          <internalNodes>
            0 -1 45 -604321542 -577 708451738 924908986 1576885452
            -36700161 -41764 -1557</internalNodes>
          <leafValues>
            -5.7385557889938354e-01 4.0290340781211853e-01</leafValues></_>
        <_>
          <internalNodes>
            0 -1 108 -152060146 -272699704 -1132675443 -1258291457
            -806822580 -1072939516 -234899457 -201414694</internalNodes>
          <leafValues>
            -5.8711981773376465e-01 3.7965789437294006e-01</leafValues></_>
        <_>
          <internalNodes>
            0 -1 92 -1350500900 -8790531 -1073774595 -2159371
            -1078461185 -285438737 -1078342145 503120085</internalNodes>
          <leafValues>
            -6.1475545167922974e-01 3.7728866934776306e-01</leafValues></_>
        <_>
          <internalNodes>
            0 -1 173 -67633585 2080112407 578462327 811859962 -77864438
            -159524003 1616183290 -227279117</internalNodes>
          <leafValues>
            -5.1359736919403076e-01 4.3916255235671997e-01</leafValues></_></weakClassifiers></_>
    <!-- stage 8 -->
    <_>
      <maxWeakCount>9</maxWeakCount>
      <stageThreshold>-1.4959440231323242e+00</stageThreshold>
      <weakClassifiers>
        <_>
          <internalNodes>
            0 -1 25 -16642 2147450495 -1140939778 454754303 -167818018
            1568616540 -67108866 -8388609</internalNodes>
          <leafValues>
            -5.7527559995651245e-01 4.8502364754676819e-01</leafValues></_>
        <_>
          <internalNodes>
            0 -1 166 -1249 -8400113 1935670111 2069888799 -75498753
            -3333 -77595649 -77857957</internalNodes>
          <leafValues>
            -4.4820195436477661e-01 6.2785828113555908e-01</leafValues></_>
        <_>
          <internalNodes>
            0 -1 109 -585123656 -5768784 429898928 -541065289
            -1111512908 -1082394444 227379352 -1614824790</internalNodes>
          <leafValues>
            -6.8340915441513062e-01 3.4751874208450317e-01</leafValues></_>
        <_>
          <internalNodes>
            0 -1 21 -403789910 -21965 1204810495 -1078470441 -808472657
            -21761 1104134351 -538979585</internalNodes>
          <leafValues>
            -5.3793644905090332e-01 4.2589107155799866e-01</leafValues></_>
        <_>
          <internalNodes>
            0 -1 93 -20121980 -131123 -34209793 -2621473 -46268425 -4657
            -317923339 922848397</internalNodes>
          <leafValues>
            -6.5997517108917236e-01 3.5552811622619629e-01</leafValues></_>
        <_>
          <internalNodes>
            0 -1 119 926439413 1060968445 1602076671 2113355773
            -172507727 -1077936193 1060863997 1073680552</internalNodes>
          <leafValues>
            -5.8177876472473145e-01 3.6214566230773926e-01</leafValues></_>
        <_>
          <internalNodes>
            0 -1 88 -268457440 -287364377 1073462271 1006583807
            -1275592798 -403228814 -6340865 867379199</internalNodes>
          <leafValues>
            -6.7908585071563721e-01 3.3016461133956909e-01</leafValues></_>
        <_>
          <internalNodes>
            0 -1 177 -3149842 -201328129 -353395570 -487740434
            -537919665 2004607871 -268436242 1660932095</internalNodes>
          <leafValues>
            -5.6409585475921631e-01 3.9361280202865601e-01</leafValues></_>
        <_>
          <internalNodes>
            0 -1 69 -1417093640 -715305964 -1678254083 1406735477
            -1635063041 -81797763 -1180964609 520439029</internalNodes>
          <leafValues>
            -6.7460608482360840e-01 3.1667840480804443e-01</leafValues></_></weakClassifiers></_>
    <!-- stage 9 -->
    <_>
      <maxWeakCount>10</maxWeakCount>
      <stageThreshold>-1.5328406095504761e+00</stageThreshold>
      <weakClassifiers>
        <_>
          <internalNodes>
            0 -1 29 -786433 -76404113 2131951611 2130771967 -1 -45473
            -11272193 -11010049</internalNodes>
          <leafValues>
            -4.8257249593734741e-01 5.9201365709304810e-01</leafValues></_>
        <_>
          <internalNodes>
            0 -1 178 -1 -1078283336 -1342193668 -270598852 456916991
            1057217464 1600085501 -1311236</internalNodes>
          <leafValues>
            -4.9599441885948181e-01 4.9969696998596191e-01</leafValues></_>
        <_>
          <internalNodes>
            0 -1 57 -184558721 -202145793 -2367693 1886409299 1910229836
            2080210879 1944059739 -69380269</internalNodes>
          <leafValues>
            -5.0597316026687622e-01 4.7073438763618469e-01</leafValues></_>
        <_>
          <internalNodes>
            0 -1 142 -19397388 -2408449 -74777089 -1074053637 -90113541
            -302055937 -1111818758 -80069158</internalNodes>
          <leafValues>
            -5.3026860952377319e-01 4.2578119039535522e-01</leafValues></_>
        <_>
          <internalNodes>
            0 -1 82 -47972353 926268927 -332213763 926146547 -340074502
            941264107 -311428869 993259767</internalNodes>
          <leafValues>
            -6.3281261920928955e-01 3.6179584264755249e-01</leafValues></_>
        <_>
          <internalNodes>
            0 -1 37 -664818978 1608455999 -1092944162 307429087 -58356
            -633076222 -119611697 -547618849</internalNodes>
          <leafValues>
            -5.8597505092620850e-01 3.7291705608367920e-01</leafValues></_>
        <_>
          <internalNodes>
            0 -1 83 -814768545 -142606465 638496585 -2042573233
            1733277374 -1332365569 -577802243 -2118961</internalNodes>
          <leafValues>
            -4.3570783734321594e-01 5.2677416801452637e-01</leafValues></_>
        <_>
          <internalNodes>
            0 -1 148 1060826105 -9175108 -137265161 -278787 -1908785153
            -1623467659 792170187 792665213</internalNodes>
          <leafValues>
            -5.5893105268478394e-01 3.9535737037658691e-01</leafValues></_>
        <_>
          <internalNodes>
            0 -1 23 -412127386 -269520913 -256380174 -4227075 -755238921
            -940573023 1399842417 -134217733</internalNodes>
          <leafValues>
            -4.9542954564094543e-01 4.1762501001358032e-01</leafValues></_>
        <_>
          <internalNodes>
            0 -1 56 -353709334 -96486402 -850526220 1960704120
            -1964192774 -1073743442 1338637309 -3593</internalNodes>
          <leafValues>
            -5.8978581428527832e-01 3.6743140220642090e-01</leafValues></_></weakClassifiers></_>
    <!-- stage 10 -->
    <_>
      <maxWeakCount>10</maxWeakCount>
      <stageThreshold>-2.1070926189422607e+00</stageThreshold>
      <weakClassifiers>
        <_>
          <internalNodes>
            0 -1 183 -1025 -76022913 -754974977 1920991231 -67109041
            -8388769 -1 -75497473</internalNodes>
          <leafValues>
            -4.2381885647773743e-01 6.8754982948303223e-01</leafValues></_>
        <_>
          <internalNodes>
            0 -1 48 -553976066 -84738049 721484506 2130900959 -822163234
            -830824609 2135150314 -8388609</internalNodes>
          <leafValues>
            -5.7034271955490112e-01 4.4338396191596985e-01</leafValues></_>
        <_>
          <internalNodes>
            0 -1 67 -1282736133 -4465419 -1084235809 2147470844
            -1611666177 -1073756705 -1145053187 402605297</internalNodes>
          <leafValues>
            -5.7701712846755981e-01 3.8112562894821167e-01</leafValues></_>
        <_>
          <internalNodes>
            0 -1 126 2003828607 -1222119641 -1564561409 -1372656657
            -33686723 -1659521731 -22102017 -1793064961</internalNodes>
          <leafValues>
            -4.8594248294830322e-01 4.4858551025390625e-01</leafValues></_>
        <_>
          <internalNodes>
            0 -1 4 -269553682 267366282 901751251 -1210118241 -241178740
            -4255992 -68689981 -2142369</internalNodes>
          <leafValues>
            -6.7623704671859741e-01 3.2115817070007324e-01</leafValues></_>
        <_>
          <internalNodes>
            0 -1 130 -127942588 -145287868 -838077057 1532887007
            -285232944 -16338 -252643607 -631243937</internalNodes>
          <leafValues>
            -6.2104576826095581e-01 2.9753026366233826e-01</leafValues></_>
        <_>
          <internalNodes>
            0 -1 85 -965747089 -412614785 642690317 -1614246197
            -671698210 -1280903169 -422270468 -338705665</internalNodes>
          <leafValues>
            -4.1039821505546570e-01 4.8568701744079590e-01</leafValues></_>
        <_>
          <internalNodes>
            0 -1 30 1181674239 -161029 -420291585 -6225925 2093961074
            -2154977 -159940609 -16550057</internalNodes>
          <leafValues>
            -3.9916560053825378e-01 4.8473203182220459e-01</leafValues></_>
        <_>
          <internalNodes>
            0 -1 175 -6 -812881010 -606603343 1608499147 -68159494
            1217252686 100004336 1598025679</internalNodes>
          <leafValues>
            -5.3734648227691650e-01 3.8272592425346375e-01</leafValues></_>
        <_>
          <internalNodes>
            0 -1 122 -550367078 1608470777 -69214317 -570500613
            -21299270 -1680019203 -1112375366 -5617478</internalNodes>
          <leafValues>
            -4.7268483042716980e-01 4.1743695735931396e-01</leafValues></_></weakClassifiers></_>
    <!-- stage 11 -->
    <_>
      <maxWeakCount>12</maxWeakCount>
      <stageThreshold>-2.2466831207275391e+00</stageThreshold>
      <weakClassifiers>
        <_>
          <internalNodes>
            0 -1 184 -1 -806354961 -403705870 -536875025 -538968065
            1326436303 -201328649 -536870929</internalNodes>
          <leafValues>
            -4.3119797110557556e-01 6.2163758277893066e-01</leafValues></_>
        <_>
          <internalNodes>
            0 -1 47 -303105 -65482 2132770815 232741375 -1145372678
            -4565826 721485818 1057161199</internalNodes>
          <leafValues>
            -5.6170129776000977e-01 4.4686961174011230e-01</leafValues></_>
        <_>
          <internalNodes>
            0 -1 107 -780150017 -143392777 106905215 1296411311
            -998928248 -724173058 1432157407 -548434289</internalNodes>
          <leafValues>
            -4.1216808557510376e-01 5.2614396810531616e-01</leafValues></_>
        <_>
          <internalNodes>
            0 -1 10 2147426303 1608473855 -1124401281 354484207
            -35715970 1559560216 -67125250 -8389121</internalNodes>
          <leafValues>
            -4.2051950097084045e-01 4.7417905926704407e-01</leafValues></_>
        <_>
          <internalNodes>
            0 -1 112 -76220164 1059583997 2003817793 791674851
            -1078334721 623112885 -1157906433 1059320547</internalNodes>
          <leafValues>
            -6.9579708576202393e-01 2.9718574881553650e-01</leafValues></_>
        <_>
          <internalNodes>
            0 -1 152 -1163149319 -1145325712 -1107296257 1610612213
            -1203784013 -1086464011 160906943 528440669</internalNodes>
          <leafValues>
            -5.5457717180252075e-01 3.5143139958381653e-01</leafValues></_>
        <_>
          <internalNodes>
            0 -1 95 -603988482 1534250479 -2048451174 -539042178
            -1141914913 1366673341 -302044376 -1879096802</internalNodes>
          <leafValues>
            -5.0444209575653076e-01 3.8753813505172729e-01</leafValues></_>
        <_>
          <internalNodes>
            0 -1 70 -337597701 -147525 -170524675 491981585 -807485505
            -540739 1609555967 -2285897</internalNodes>
          <leafValues>
            -4.2544674873352051e-01 4.6280178427696228e-01</leafValues></_>
        <_>
          <internalNodes>
            0 -1 34 -1074824218 -269766678 551756032 933198628 -8945665
            1207299071 1400862532 2013265727</internalNodes>
          <leafValues>
            -6.1033612489700317e-01 3.1275820732116699e-01</leafValues></_>
        <_>
          <internalNodes>
            0 -1 101 -368116209 -305594548 745500379 -1163727249
            -70386676 -253381816 -161571076 -207117137</internalNodes>
          <leafValues>
            -4.9523991346359253e-01 3.9455258846282959e-01</leafValues></_>
        <_>
          <internalNodes>
            0 -1 172 -203439538 2105507639 537585627 1383267198
            2062147584 -27263396 1651571710 -95235494</internalNodes>
          <leafValues>
            -5.6257271766662598e-01 3.1243741512298584e-01</leafValues></_>
        <_>
          <internalNodes>
            0 -1 111 -596834211 1060052348 944111069 437829117 -1312520
            -17134594 -1160119592 -1173295493</internalNodes>
          <leafValues>
            -4.3138974905014038e-01 4.1607540845870972e-01</leafValues></_></weakClassifiers></_>
    <!-- stage 12 -->
    <_>
      <maxWeakCount>12</maxWeakCount>
      <stageThreshold>-1.7240782976150513e+00</stageThreshold>
      <weakClassifiers>
        <_>
          <internalNodes>
            0 -1 182 -134218913 -2097281 1937767423 1937767295 -83891458
            -67111057 -218105089 -227016833</internalNodes>
          <leafValues>
            -4.4367155432701111e-01 5.5975526571273804e-01</leafValues></_>
        <_>
          <internalNodes>
            0 -1 27 -257 -43045 -625016833 454754303 -1110786 -548469165
            -1 -10485761</internalNodes>
          <leafValues>
            -3.7288010120391846e-01 6.2814426422119141e-01</leafValues></_>
        <_>
          <internalNodes>
            0 -1 105 -17365900 -129828 -1074528777 -570553092
            -1477115912 -17370638 -1082720776 -1352213251</internalNodes>
          <leafValues>
            -5.5808067321777344e-01 3.8152050971984863e-01</leafValues></_>
        <_>
          <internalNodes>
            0 -1 120 -536887716 2071936895 687368701 977197498 -19207494
            -83973574 -360855302 975952634</internalNodes>
          <leafValues>
            -5.7476890087127686e-01 3.0602973699569702e-01</leafValues></_>
        <_>
          <internalNodes>
            0 -1 102 536673276 2145385215 1016929788 2147349502 -259
            1595009531 1066375935 1064304639</internalNodes>
          <leafValues>
            -5.7746571302413940e-01 3.7022423744201660e-01</leafValues></_>
        <_>
          <internalNodes>
            0 -1 161 -1616117765 -1884576862 358047229 391344561
            -611403854 185238247 1296092317 1600123603</internalNodes>
          <leafValues>
            -5.2369314432144165e-01 3.4356170892715454e-01</leafValues></_>
        <_>
          <internalNodes>
            0 -1 26 -241 -1048578 -16781586 -218628097 -541433
            1577975567 -33612002 -136314881</internalNodes>
          <leafValues>
            -3.9154016971588135e-01 4.5125147700309753e-01</leafValues></_>
        <_>
          <internalNodes>
            0 -1 123 -1908719429 1934818679 -577282177 -338903045
            -9497576 1933286910 2081758232 -2188130</internalNodes>
          <leafValues>
            -4.6318423748016357e-01 3.9895734190940857e-01</leafValues></_>
        <_>
          <internalNodes>
            0 -1 89 1550584120 2147292185 -571492033 1603884349
            -31130626 -1140901570 -139003042 2133516046</internalNodes>
          <leafValues>
            -5.9166193008422852e-01 2.8960356116294861e-01</leafValues></_>
        <_>
          <internalNodes>
            0 -1 137 -855642484 -34620280 -1493368897 -1884356693
            -822235476 -1179670386 15073279 854458284</internalNodes>
          <leafValues>
            -6.2610071897506714e-01 2.8527095913887024e-01</leafValues></_>
        <_>
          <internalNodes>
            0 -1 0 -1081091329 268435455 335991253 1071640533 -1081345
            -3162163 -539623427 -28837051</internalNodes>
          <leafValues>
            -3.8609609007835388e-01 4.7948390245437622e-01</leafValues></_>
        <_>
          <internalNodes>
            0 -1 179 -319819798 571450255 -437063934 -2037469270
            -856705037 84871105 2002778096 1162737510</internalNodes>
          <leafValues>
            -6.5408563613891602e-01 2.7461990714073181e-01</leafValues></_></weakClassifiers></_>
    <!-- stage 13 -->
    <_>
      <maxWeakCount>12</maxWeakCount>
      <stageThreshold>-1.8506270647048950e+00</stageThreshold>
      <weakClassifiers>
        <_>
          <internalNodes>
            0 -1 185 -5 -1280574469 -262147 -1048577 -1879048197
            1035727291 1608504829 -65</internalNodes>
          <leafValues>
            -4.0326473116874695e-01 6.0560774803161621e-01</leafValues></_>
        <_>
          <internalNodes>
            0 -1 20 -808540245 -543973185 1204773119 -540028681
            -879841365 -7357509 63932399 -540032801</internalNodes>
          <leafValues>
            -4.8594889044761658e-01 4.3847382068634033e-01</leafValues></_>
        <_>
          <internalNodes>
            0 -1 58 -805306619 466878427 -67110023 -1207975969
            -1677721601 526602655 502267295 1006341631</internalNodes>
          <leafValues>
            -5.2097189426422119e-01 3.9334258437156677e-01</leafValues></_>
        <_>
          <internalNodes>
            0 -1 131 -1363525574 1506601727 -1077149697 1307508735
            -1347750990 -100925505 -12880454 -4564582</internalNodes>
          <leafValues>
            -5.5393975973129272e-01 3.3703094720840454e-01</leafValues></_>
        <_>
          <internalNodes>
            0 -1 68 -1566000168 -11028495 1599471615 -707450543
            -1879064577 -16862467 1333622783 1296377811</internalNodes>
          <leafValues>
            -5.3427892923355103e-01 3.5628181695938110e-01</leafValues></_>
        <_>
          <internalNodes>
            0 -1 160 -8193 -67911938 424610909 -282946 -1 -1083187205
            475860172 -2117906</internalNodes>
          <leafValues>
            -4.0843388438224792e-01 4.6353521943092346e-01</leafValues></_>
        <_>
          <internalNodes>
            0 -1 114 -134806276 -718700 -142198793 -127876 -1078285640
            -1074006038 656474079 -1099761731</internalNodes>
          <leafValues>
            -4.6149215102195740e-01 4.1917240619659424e-01</leafValues></_>
        <_>
          <internalNodes>
            0 -1 60 1246914519 1595235839 1565327359 1037202128
            1097745012 -16840865 1610514298 2145346162</internalNodes>
          <leafValues>
            -5.3061676025390625e-01 3.2262808084487915e-01</leafValues></_>
        <_>
          <internalNodes>
            0 -1 22 -140056058 857899648 -2026435281 2002216052
            -155191410 -1076911200 547745743 2004309623</internalNodes>
          <leafValues>
            -7.3696231842041016e-01 1.9948342442512512e-01</leafValues></_>
        <_>
          <internalNodes>
            0 -1 162 -67132920 1918596622 2048651739 307483483 -67132680
            -333042 -178294021 -212667566</internalNodes>
          <leafValues>
            -5.4638016223907471e-01 2.9435038566589355e-01</leafValues></_>
        <_>
          <internalNodes>
            0 -1 35 -2030090034 1439390429 -1722616098 1537933019
            -706786100 1549538486 -1620124452 -547890085</internalNodes>
          <leafValues>
            -4.9087598919868469e-01 3.3936250209808350e-01</leafValues></_>
        <_>
          <internalNodes>
            0 -1 17 -894500882 805306367 -805470241 1340079869
            -863436804 -268449801 1489256445 -817577644</internalNodes>
          <leafValues>
            -5.5002433061599731e-01 2.9591438174247742e-01</leafValues></_></weakClassifiers></_>
    <!-- stage 14 -->
    <_>
      <maxWeakCount>13</maxWeakCount>
      <stageThreshold>-2.1093871593475342e+00</stageThreshold>
      <weakClassifiers>
        <_>
          <internalNodes>
            0 -1 6 -269485125 -67112221 -570460365 -134220873 -335544321
            -335545375 -939526197 -671091209</internalNodes>
          <leafValues>
            -4.2189991474151611e-01 5.9888088703155518e-01</leafValues></_>
        <_>
          <internalNodes>
            0 -1 132 -773852975 -606133469 -706742798 -543195201
            -706752015 -639684297 -570434081 -540017857</internalNodes>
          <leafValues>
            -4.4661808013916016e-01 4.7739958763122559e-01</leafValues></_>
        <_>
          <internalNodes>
            0 -1 73 -940579201 2011168351 621051909 -37299489 728728458
            -1261054210 -42079779 -100665105</internalNodes>
          <leafValues>
            -3.8162726163864136e-01 5.1067453622817993e-01</leafValues></_>
        <_>
          <internalNodes>
            0 -1 163 -2 -3145730 -542640900 -541065222 -672412785
            -1957692145 -845951784 -585237589</internalNodes>
          <leafValues>
            -5.0037109851837158e-01 3.6236548423767090e-01</leafValues></_>
        <_>
          <internalNodes>
            0 -1 141 229701624 -1078331395 -671566915 -131588 750450873
            -525315 1069260585 1069484460</internalNodes>
          <leafValues>
            -6.4126998186111450e-01 2.6702991127967834e-01</leafValues></_>
        <_>
          <internalNodes>
            0 -1 79 -47655681 2001203191 -773891109 -743800833
            1967541248 1467963894 -1606910 -1215692790</internalNodes>
          <leafValues>
            -4.6107095479965210e-01 3.7370690703392029e-01</leafValues></_>
        <_>
          <internalNodes>
            0 -1 49 -8750086 -673027238 1565687738 220216050 -685606150
            -1156102 -548447238 2136422994</internalNodes>
          <leafValues>
            -6.5295732021331787e-01 2.6546186208724976e-01</leafValues></_>
        <_>
          <internalNodes>
            0 -1 110 -202653483 -1319165739 -612368529 -1815260707
            -8391713 -4326466 -136578211 -1157566371</internalNodes>
          <leafValues>
            -4.6534660458564758e-01 3.5223203897476196e-01</leafValues></_>
        <_>
          <internalNodes>
            0 -1 77 -1165951752 1909414236 -1241518081 1344099825
            -1429209665 -156262 603965950 318577825</internalNodes>
          <leafValues>
            -6.6487950086593628e-01 2.5987744331359863e-01</leafValues></_>
        <_>
          <internalNodes>
            0 -1 125 -25740675 -227177915 -1327603843 -1400422137
            -36203404 -1112295332 -1939947529 -1244685377</internalNodes>
          <leafValues>
            -4.3828490376472473e-01 3.9420145750045776e-01</leafValues></_>
        <_>
          <internalNodes>
            0 -1 171 1088414286 1946149727 -573284626 -210052483
            -1540296999 -1169427467 -1435371544 -227345838</internalNodes>
          <leafValues>
            -4.7895756363868713e-01 3.6075609922409058e-01</leafValues></_>
        <_>
          <internalNodes>
            0 -1 80 -282604933 1566568559 -1043346386 547467018
            -275784712 662172926 -288633684 -942692785</internalNodes>
          <leafValues>
            -4.7298848628997803e-01 3.8141381740570068e-01</leafValues></_>
        <_>
          <internalNodes>
            0 -1 31 -286265625 -1816423882 1163915761 1461417616
            -357570053 -1707426887 38125782 1175442641</internalNodes>
          <leafValues>
            -5.2517008781433105e-01 3.2569476962089539e-01</leafValues></_></weakClassifiers></_>
    <!-- stage 15 -->
    <_>
      <maxWeakCount>12</maxWeakCount>
      <stageThreshold>-1.8122022151947021e+00</stageThreshold>
      <weakClassifiers>
        <_>
          <internalNodes>
            0 -1 84 -8926157 -22788 225107423 -69220630 -1095176458
            -793796 -1346850934 -1074087939</internalNodes>
          <leafValues>
            -4.7975707054138184e-01 4.5123210549354553e-01</leafValues></_>
        <_>
          <internalNodes>
            0 -1 144 -75498683 1532449605 2069032959 1398012767
            -354492167 -2129453 -1410352134 -75760774</internalNodes>
          <leafValues>
            -4.3817570805549622e-01 4.4683247804641724e-01</leafValues></_>
        <_>
          <internalNodes>
            0 -1 28 -621289217 2140140435 -554048265 1895562879
            -202653105 1527195406 -660735073 2135949311</internalNodes>
          <leafValues>
            -4.6173331141471863e-01 4.2190980911254883e-01</leafValues></_>
        <_>
          <internalNodes>
            0 -1 176 -67116530 -201594285 974500847 1935000187
            1624943352 -102310577 8771274 1212339062</internalNodes>
          <leafValues>
            -5.5292540788650513e-01 3.2346230745315552e-01</leafValues></_>
        <_>
          <internalNodes>
            0 -1 53 -335609856 1434284373 1330475973 1601000829
            -1970302979 -491943779 -2020634887 -541526145</internalNodes>
          <leafValues>
            -5.2670103311538696e-01 3.4547173976898193e-01</leafValues></_>
        <_>
          <internalNodes>
            0 -1 100 -1435031028 -289215058 851830937 -1188713013
            -476513733 -1276659398 -2100818705 -234901777</internalNodes>
          <leafValues>
            -5.9578204154968262e-01 2.5982481241226196e-01</leafValues></_>
        <_>
          <internalNodes>
            0 -1 140 1415566840 -608177895 1162286589 1596978617
            -611345999 -1148281696 1232984405 1608513019</internalNodes>
          <leafValues>
            -5.4367178678512573e-01 3.1980171799659729e-01</leafValues></_>
        <_>
          <internalNodes>
            0 -1 97 -953167661 -136054885 -1034490794 2105366 355311760
            -177744142 -1924189676 -1660901737</internalNodes>
          <leafValues>
            -5.3315925598144531e-01 3.1282988190650940e-01</leafValues></_>
        <_>
          <internalNodes>
            0 -1 46 1035173855 -136973889 84217151 1277132671
            -1615151126 -49109576 874575346 -540082177</internalNodes>
          <leafValues>
            -3.8634070754051208e-01 4.3523219227790833e-01</leafValues></_>
        <_>
          <internalNodes>
            0 -1 19 684588495 466597103 491045343 524811225 -552885612
            -335019899 1348285529 1498806356</internalNodes>
          <leafValues>
            -7.5770032405853271e-01 2.0717754960060120e-01</leafValues></_>
        <_>
          <internalNodes>
            0 -1 1 -352591109 797434614 21217919 -1881214768 -549718081
            -78410857 386113783 -1067344</internalNodes>
          <leafValues>
            -4.5458227396011353e-01 3.7526044249534607e-01</leafValues></_>
        <_>
          <internalNodes>
            0 -1 98 -490225645 -405580195 22606418 -17139561 -18892018
            48066847 -317244617 -1085109234</internalNodes>
          <leafValues>
            -4.6988528966903687e-01 3.7504565715789795e-01</leafValues></_></weakClassifiers></_>
    <!-- stage 16 -->
    <_>
      <maxWeakCount>12</maxWeakCount>
      <stageThreshold>-1.8648051023483276e+00</stageThreshold>
      <weakClassifiers>
        <_>
          <internalNodes>
            0 -1 127 -673228577 -33923201 -74121217 1066948895
            -104140097 -279813 -40247301 -365364481</internalNodes>
          <leafValues>
            -4.4769743084907532e-01 5.2102804183959961e-01</leafValues></_>
        <_>
          <internalNodes>
            0 -1 59 -436811781 -100706785 765261023 1999789023
            -509403110 -69664703 -238120226 1595038559</internalNodes>
          <leafValues>
            -5.4127550125122070e-01 3.8580015301704407e-01</leafValues></_>
        <_>
          <internalNodes>
            0 -1 81 1926676734 506470638 -1114514050 -151323306
            2134489427 830155035 -1148486665 929725242</internalNodes>
          <leafValues>
            -6.8658202886581421e-01 2.9670944809913635e-01</leafValues></_>
        <_>
          <internalNodes>
            0 -1 121 -1640768069 -147137153 -272633921 -548757541
            2021648043 1983633277 -709489528 -2138113</internalNodes>
          <leafValues>
            -3.5188400745391846e-01 5.6800901889801025e-01</leafValues></_>
        <_>
          <internalNodes>
            0 -1 154 -750829317 -609532685 1316749179 1527714009
            -216794133 -604807749 -116200646 -620045317</internalNodes>
          <leafValues>
            -4.0148577094078064e-01 4.7810956835746765e-01</leafValues></_>
        <_>
          <internalNodes>
            0 -1 50 -1067522870 1916425738 1334303196 -237841894
            -1999859302 -557874796 1292912831 -1051729</internalNodes>
          <leafValues>
            -6.3379794359207153e-01 2.8634968400001526e-01</leafValues></_>
        <_>
          <internalNodes>
            0 -1 24 1328014594 -403710033 -243189600 -140782141
            -477253228 1116709261 1935274848 1642065827</internalNodes>
          <leafValues>
            -6.5207463502883911e-01 2.9617521166801453e-01</leafValues></_>
        <_>
          <internalNodes>
            0 -1 156 -102238046 -1412506665 -175963864 -546449938
            1342248433 1222181025 -104859202 -144378923</internalNodes>
          <leafValues>
            -6.4376854896545410e-01 2.6658126711845398e-01</leafValues></_>
        <_>
          <internalNodes>
            0 -1 116 406266461 -1089883546 407878230 -1438311970
            -81855899 -1189035919 -2074973490 -1114792293</internalNodes>
          <leafValues>
            -4.8792764544487000e-01 3.9334064722061157e-01</leafValues></_>
        <_>
          <internalNodes>
            0 -1 75 -765277304 1751073067 -1997850597 1260051147
            -1049942865 -127971185 -244612665 1202686988</internalNodes>
          <leafValues>
            -6.7080742120742798e-01 2.6085957884788513e-01</leafValues></_>
        <_>
          <internalNodes>
            0 -1 118 2016705341 -1646688292 287116735 -40035943
            -634327811 2073206972 -1690972903 497692696</internalNodes>
          <leafValues>
            -5.2322590351104736e-01 3.5737740993499756e-01</leafValues></_>
        <_>
          <internalNodes>
            0 -1 115 1147070495 1718491346 1074421085 2143126673
            1913359498 -1404993400 470552411 -281081841</internalNodes>
          <leafValues>
            -4.2163330316543579e-01 4.4276452064514160e-01</leafValues></_></weakClassifiers></_>
    <!-- stage 17 -->
    <_>
      <maxWeakCount>13</maxWeakCount>
      <stageThreshold>-1.6124625205993652e+00</stageThreshold>
      <weakClassifiers>
        <_>
          <internalNodes>
            0 -1 181 -473956353 -132224466 -440573832 -813596240
            -1631849473 -1951675766 1325385213 -752882773</internalNodes>
          <leafValues>
            -4.6014827489852905e-01 5.5115944147109985e-01</leafValues></_>
        <_>
          <internalNodes>
            0 -1 38 -688156929 -765525986 1861939196 1062795887
            -621100918 -1386348414 -1713971522 -70254657</internalNodes>
          <leafValues>
            -3.9269983768463135e-01 5.7021135091781616e-01</leafValues></_>
        <_>
          <internalNodes>
            0 -1 143 -107756962 1543970818 1644259839 442433586
            -1870030630 -381582846 1219218152 1511778875</internalNodes>
          <leafValues>
            -5.0535893440246582e-01 4.2778286337852478e-01</leafValues></_>
        <_>
          <internalNodes>
            0 -1 87 -791311283 -245912630 1078054357 -1765243137
            -1878871138 -1778216832 -1803527988 -1483796785</internalNodes>
          <leafValues>
            -4.7379216551780701e-01 4.4043192267417908e-01</leafValues></_>
        <_>
          <internalNodes>
            0 -1 124 -884222981 -1889729598 1343258457 1415303913
            -1423998806 -1967837182 1393612187 -10489809</internalNodes>
          <leafValues>
            -3.6880996823310852e-01 5.8038866519927979e-01</leafValues></_>
        <_>
          <internalNodes>
            0 -1 14 520233471 702025904 247485848 220861769 -1315213181
            432015488 -620189046 -11472382</internalNodes>
          <leafValues>
            -5.0764381885528564e-01 4.3710568547248840e-01</leafValues></_>
        <_>
          <internalNodes>
            0 -1 66 -199565522 -245263607 -1053453541 1359717179
            -2137472598 -1430191358 327688623 1397606915</internalNodes>
          <leafValues>
            -5.6121945381164551e-01 3.5449114441871643e-01</leafValues></_>
        <_>
          <internalNodes>
            0 -1 86 1130075611 -198902822 618906633 -136122417
            -548466536 -891460372 1508886767 -1245334905</internalNodes>
          <leafValues>
            -3.6492356657981873e-01 5.9450006484985352e-01</leafValues></_>
        <_>
          <internalNodes>
            0 -1 8 -405292255 1775214758 -2129719232 2000920833
            -805184622 226615425 1699045888 913045923</internalNodes>
          <leafValues>
            -5.2545857429504395e-01 4.1958871483802795e-01</leafValues></_>
        <_>
          <internalNodes>
            0 -1 51 -270587917 -572502955 -1627590785 1574434655
            -822407495 -687944587 -840038401 -546056737</internalNodes>
          <leafValues>
            -3.7750387191772461e-01 5.9407716989517212e-01</leafValues></_>
        <_>
          <internalNodes>
            0 -1 71 -1073422986 -2094069556 -1865400171 890327237
            276927950 -1198604096 503513507 1041580785</internalNodes>
          <leafValues>
            -6.6211974620819092e-01 3.7172934412956238e-01</leafValues></_>
        <_>
          <internalNodes>
            0 -1 113 1955098718 294080523 840110461 -2015161557
            302152538 722142095 1930494480 -72387713</internalNodes>
          <leafValues>
            -5.2795058488845825e-01 4.0811613202095032e-01</leafValues></_>
        <_>
          <internalNodes>
            0 -1 134 -1337883334 -2123366328 1073824157 1593892864
            -1970697600 -1960673151 -922002864 -1626927295</internalNodes>
          <leafValues>
            -5.8999496698379517e-01 3.7359207868576050e-01</leafValues></_></weakClassifiers></_>
    <!-- stage 18 -->
    <_>
      <maxWeakCount>11</maxWeakCount>
      <stageThreshold>-1.5231395959854126e+00</stageThreshold>
      <weakClassifiers>
        <_>
          <internalNodes>
            0 -1 104 1140572379 -263934146 -604300778 -8467257
            1996428811 -1148117816 -1158203253 -35929969</internalNodes>
          <leafValues>
            -4.6226000785827637e-01 6.5710163116455078e-01</leafValues></_>
        <_>
          <internalNodes>
            0 -1 128 -805045669 436322589 268587475 172575123
            -2130673158 -1107292024 134340782 975866254</internalNodes>
          <leafValues>
            -5.4241949319839478e-01 5.3685152530670166e-01</leafValues></_>
        <_>
          <internalNodes>
            0 -1 169 -171051538 286314497 16777224 305517061 1619128897
            1611399248 1367544232 836225732</internalNodes>
          <leafValues>
            -5.4327219724655151e-01 4.9064537882804871e-01</leafValues></_>
        <_>
          <internalNodes>
            0 -1 96 1095076373 1414054528 -1073594103 -1789286704
            302036624 1914191884 1900232713 -1748006329</internalNodes>
          <leafValues>
            -5.2308350801467896e-01 5.0272983312606812e-01</leafValues></_>
        <_>
          <internalNodes>
            0 -1 15 -1070530009 -1477942145 37371573 -1785876887
            1211171844 -71666668 230848515 -58011898</internalNodes>
          <leafValues>
            -4.7699424624443054e-01 5.7337081432342529e-01</leafValues></_>
        <_>
          <internalNodes>
            0 -1 39 -602782566 -1781512943 1241563586 17826177 348889242
            -922746880 281262 -614366833</internalNodes>
          <leafValues>
            -5.8923727273941040e-01 4.7739645838737488e-01</leafValues></_>
        <_>
          <internalNodes>
            0 -1 64 -1609500167 -1074622069 318767889 -2116713190
            -2128230341 -1467481983 -2013232967 -921089663</internalNodes>
          <leafValues>
            -5.0959956645965576e-01 5.6772434711456299e-01</leafValues></_>
        <_>
          <internalNodes>
            0 -1 138 -632162085 1493302006 -1572931344 -582845656
            -1082131494 1218182645 2080299450 1550549887</internalNodes>
          <leafValues>
            -4.5573174953460693e-01 5.8143150806427002e-01</leafValues></_>
        <_>
          <internalNodes>
            0 -1 42 -1064283773 -754874229 67502349 1166510097
            -2070249469 -936771456 -2147483508 -1030618941</internalNodes>
          <leafValues>
            -5.8841848373413086e-01 4.7755876183509827e-01</leafValues></_>
        <_>
          <internalNodes>
            0 -1 3 2038370580 -1283100695 -1459843576 -1848449802
            219627532 1431235846 -424196090 -1168119857</internalNodes>
          <leafValues>
            -4.7826194763183594e-01 5.7842832803726196e-01</leafValues></_>
        <_>
          <internalNodes>
            0 -1 153 -1862040096 757109008 -922681291 1502806017 96504
            235488402 453511309 460054559</internalNodes>
          <leafValues>
            -5.4944860935211182e-01 4.9358412623405457e-01</leafValues></_></weakClassifiers></_></stages>
  <features>
    <_>
      <rect>
        0 0 10 10</rect></_>
    <_>
      <rect>
        0 1 5 2</rect></_>
    <_>
      <rect>
        0 7 3 3</rect></_>
    <_>
      <rect>
        0 14 1 2</rect></_>
    <_>
      <rect>
        1 5 4 4</rect></_>
    <_>
      <rect>
        2 5 3 5</rect></_>
    <_>
      <rect>
        2 7 1 3</rect></_>
    <_>
      <rect>
        2 8 1 3</rect></_>
    <_>
      <rect>
        2 10 1 2</rect></_>
    <_>
      <rect>
        2 11 2 6</rect></_>
    <_>
      <rect>
        2 13 1 4</rect></_>
    <_>
      <rect>
        2 15 1 2</rect></_>
    <_>
      <rect>
        2 15 2 4</rect></_>
    <_>
      <rect>
        2 17 2 3</rect></_>
    <_>
      <rect>
        2 18 5 4</rect></_>
    <_>
      <rect>
        2 27 5 1</rect></_>
    <_>
      <rect>
        3 0 2 6</rect></_>
    <_>
      <rect>
        3 1 5 3</rect></_>
    <_>
      <rect>
        3 3 1 5</rect></_>
    <_>
      <rect>
        3 3 8 8</rect></_>
    <_>
      <rect>
        3 4 2 3</rect></_>
    <_>
      <rect>
        3 5 2 3</rect></_>
    <_>
      <rect>
        3 5 4 5</rect></_>
    <_>
      <rect>
        3 9 1 1</rect></_>
    <_>
      <rect>
        3 11 1 1</rect></_>
    <_>
      <rect>
        3 14 1 3</rect></_>
    <_>
      <rect>
        3 15 1 1</rect></_>
    <_>
      <rect>
        3 17 1 2</rect></_>
    <_>
      <rect>
        3 19 1 1</rect></_>
    <_>
      <rect>
        3 22 4 2</rect></_>
    <_>
      <rect>
        3 25 5 1</rect></_>
    <_>
      <rect>
        4 4 2 2</rect></_>
    <_>
      <rect>
        4 4 5 7</rect></_>
    <_>
      <rect>
        4 4 6 6</rect></_>
    <_>
      <rect>
        4 10 1 1</rect></_>
    <_>
      <rect>
        4 13 1 3</rect></_>
    <_>
      <rect>
        4 14 1 3</rect></_>
    <_>
      <rect>
        4 16 1 2</rect></_>
    <_>
      <rect>
        4 17 1 2</rect></_>
    <_>
      <rect>
        4 18 3 3</rect></_>
    <_>
      <rect>
        4 18 5 3</rect></_>
    <_>
      <rect>
        5 2 4 3</rect></_>
    <_>
      <rect>
        5 2 4 4</rect></_>
    <_>
      <rect>
        5 4 2 4</rect></_>
    <_>
      <rect>
        5 4 3 2</rect></_>
    <_>
      <rect>
        5 13 2 4</rect></_>
    <_>
      <rect>
        5 17 3 4</rect></_>
    <_>
      <rect>
        5 19 2 3</rect></_>
    <_>
      <rect>
        5 20 3 2</rect></_>
    <_>
      <rect>
        5 22 5 2</rect></_>
    <_>
      <rect>
        6 4 3 2</rect></_>
    <_>
      <rect>
        6 6 1 2</rect></_>
    <_>
      <rect>
        6 6 2 3</rect></_>
    <_>
      <rect>
        6 7 1 2</rect></_>
    <_>
      <rect>
        7 2 2 2</rect></_>
    <_>
      <rect>
        7 3 5 2</rect></_>
    <_>
      <rect>
        7 4 3 2</rect></_>
    <_>
      <rect>
        7 7 3 2</rect></_>
    <_>
      <rect>
        7 8 3 6</rect></_>
    <_>
      <rect>
        7 24 2 1</rect></_>
    <_>
      <rect>
        7 25 4 1</rect></_>
    <_>
      <rect>
        8 5 6 7</rect></_>
    <_>
      <rect>
        8 21 5 2</rect></_>
    <_>
      <rect>
        8 23 2 1</rect></_>
    <_>
      <rect>
        9 2 2 1</rect></_>
    <_>
      <rect>
        9 2 3 2</rect></_>
    <_>
      <rect>
        9 2 3 4</rect></_>
    <_>
      <rect>
        9 3 1 1</rect></_>
    <_>
      <rect>
        9 3 3 1</rect></_>
    <_>
      <rect>
        9 4 1 1</rect></_>
    <_>
      <rect>
        9 4 3 1</rect></_>
    <_>
      <rect>
        9 6 6 8</rect></_>
    <_>
      <rect>
        9 9 4 4</rect></_>
    <_>
      <rect>
        9 10 4 3</rect></_>
    <_>
      <rect>
        9 23 1 1</rect></_>
    <_>
      <rect>
        10 0 3 7</rect></_>
    <_>
      <rect>
        10 3 1 1</rect></_>
    <_>
      <rect>
        10 4 1 1</rect></_>
    <_>
      <rect>
        10 6 3 6</rect></_>
    <_>
      <rect>
        10 7 2 3</rect></_>
    <_>
      <rect>
        10 7 3 5</rect></_>
    <_>
      <rect>
        10 8 3 2</rect></_>
    <_>
      <rect>
        10 8 5 6</rect></_>
    <_>
      <rect>
        10 10 3 3</rect></_>
    <_>
      <rect>
        10 11 2 3</rect></_>
    <_>
      <rect>
        10 11 3 3</rect></_>
    <_>
      <rect>
        10 11 4 3</rect></_>
    <_>
      <rect>
        10 12 3 3</rect></_>
    <_>
      <rect>
        10 14 3 3</rect></_>
    <_>
      <rect>
        10 23 1 1</rect></_>
    <_>
      <rect>
        10 24 1 1</rect></_>
    <_>
      <rect>
        10 25 2 1</rect></_>
    <_>
      <rect>
        11 3 1 1</rect></_>
    <_>
      <rect>
        11 3 3 4</rect></_>
    <_>
      <rect>
        11 3 5 2</rect></_>
    <_>
      <rect>
        11 7 3 4</rect></_>
    <_>
      <rect>
        11 10 3 4</rect></_>
    <_>
      <rect>
        11 11 2 2</rect></_>
    <_>
      <rect>
        11 11 3 2</rect></_>
    <_>
      <rect>
        11 11 3 3</rect></_>
    <_>
      <rect>
        11 13 3 3</rect></_>
    <_>
      <rect>
        11 14 3 2</rect></_>
    <_>
      <rect>
        11 16 3 4</rect></_>
    <_>
      <rect>
        12 1 3 2</rect></_>
    <_>
      <rect>
        12 11 3 2</rect></_>
    <_>
      <rect>
        12 12 1 2</rect></_>
    <_>
      <rect>
        12 12 2 1</rect></_>
    <_>
      <rect>
        12 12 2 2</rect></_>
    <_>
      <rect>
        12 15 2 1</rect></_>
    <_>
      <rect>
        12 21 4 2</rect></_>
    <_>
      <rect>
        13 0 4 4</rect></_>
    <_>
      <rect>
        13 2 3 1</rect></_>
    <_>
      <rect>
        13 9 4 6</rect></_>
    <_>
      <rect>
        13 10 2 2</rect></_>
    <_>
      <rect>
        13 13 1 2</rect></_>
    <_>
      <rect>
        13 13 2 2</rect></_>
    <_>
      <rect>
        13 16 3 2</rect></_>
    <_>
      <rect>
        13 18 4 3</rect></_>
    <_>
      <rect>
        13 23 2 1</rect></_>
    <_>
      <rect>
        13 24 2 1</rect></_>
    <_>
      <rect>
        14 3 3 1</rect></_>
    <_>
      <rect>
        14 9 2 4</rect></_>
    <_>
      <rect>
        14 11 1 2</rect></_>
    <_>
      <rect>
        14 11 2 3</rect></_>
    <_>
      <rect>
        14 14 1 1</rect></_>
    <_>
      <rect>
        14 16 2 2</rect></_>
    <_>
      <rect>
        14 17 3 2</rect></_>
    <_>
      <rect>
        15 2 2 1</rect></_>
    <_>
      <rect>
        15 2 3 1</rect></_>
    <_>
      <rect>
        15 4 2 7</rect></_>
    <_>
      <rect>
        15 4 3 2</rect></_>
    <_>
      <rect>
        15 12 1 2</rect></_>
    <_>
      <rect>
        15 20 4 2</rect></_>
    <_>
      <rect>
        15 23 2 2</rect></_>
    <_>
      <rect>
        15 23 5 2</rect></_>
    <_>
      <rect>
        16 3 1 1</rect></_>
    <_>
      <rect>
        16 4 2 1</rect></_>
    <_>
      <rect>
        16 5 3 4</rect></_>
    <_>
      <rect>
        16 12 3 4</rect></_>
    <_>
      <rect>
        16 20 3 2</rect></_>
    <_>
      <rect>
        16 21 3 2</rect></_>
    <_>
      <rect>
        16 24 1 1</rect></_>
    <_>
      <rect>
        17 3 1 1</rect></_>
    <_>
      <rect>
        17 3 2 1</rect></_>
    <_>
      <rect>
        17 3 3 2</rect></_>
    <_>
      <rect>
        17 13 4 4</rect></_>
    <_>
      <rect>
        17 15 3 3</rect></_>
    <_>
      <rect>
        17 22 2 2</rect></_>
    <_>
      <rect>
        17 23 1 1</rect></_>
    <_>
      <rect>
        17 24 1 1</rect></_>
    <_>
      <rect>
        18 4 1 1</rect></_>
    <_>
      <rect>
        18 23 1 1</rect></_>
    <_>
      <rect>
        18 24 1 1</rect></_>
    <_>
      <rect>
        18 24 2 1</rect></_>
    <_>
      <rect>
        19 2 2 3</rect></_>
    <_>
      <rect>
        19 4 2 4</rect></_>
    <_>
      <rect>
        19 10 3 4</rect></_>
    <_>
      <rect>
        19 10 3 5</rect></_>
    <_>
      <rect>
        19 14 2 4</rect></_>
    <_>
      <rect>
        19 15 3 3</rect></_>
    <_>
      <rect>
        20 13 2 5</rect></_>
    <_>
      <rect>
        20 20 2 2</rect></_>
    <_>
      <rect>
        21 5 2 3</rect></_>
    <_>
      <rect>
        21 15 2 3</rect></_>
    <_>
      <rect>
        21 17 2 3</rect></_>
    <_>
      <rect>
        22 1 2 6</rect></_>
    <_>
      <rect>
        22 3 2 4</rect></_>
    <_>
      <rect>
        22 5 2 3</rect></_>
    <_>
      <rect>
        22 9 2 7</rect></_>
    <_>
      <rect>
        22 11 1 2</rect></_>
    <_>
      <rect>
        23 6 1 3</rect></_>
    <_>
      <rect>
        23 6 1 4</rect></_>
    <_>
      <rect>
        23 8 1 2</rect></_>
    <_>
      <rect>
        23 9 1 2</rect></_>
    <_>
      <rect>
        23 18 1 1</rect></_>
    <_>
      <rect>
        23 19 1 1</rect></_>
    <_>
      <rect>
        24 7 1 3</rect></_>
    <_>
      <rect>
        24 11 1 1</rect></_>
    <_>
      <rect>
        24 13 1 4</rect></_>
    <_>
      <rect>
        24 14 1 2</rect></_>
    <_>
      <rect>
        24 16 1 1</rect></_>
    <_>
      <rect>
        24 17 1 2</rect></_>
    <_>
      <rect>
        25 7 1 3</rect></_>
    <_>
      <rect>
        25 9 1 2</rect></_>
    <_>
      <rect>
        25 14 1 2</rect></_>
    <_>
      <rect>
        25 14 1 3</rect></_>
    <_>
      <rect>
        25 16 1 1</rect></_></features></cascade>
</opencv_storage>
